const unsigned char model_tfilte[] = {28,0,0,0,84,70,76,51,20,0,32,0,28,0,24,0,20,0,16,0,12,0,0,0,8,0,4,0,20,0,0,0,28,0,0,0,140,0,0,0,228,0,0,0,48,3,0,0,64,3,0,0,212,8,0,0,3,0,0,0,1,0,0,0,4,0,0,0,130,252,255,255,12,0,0,0,28,0,0,0,60,0,0,0,15,0,0,0,115,101,114,118,105,110,103,95,100,101,102,97,117,108,116,0,1,0,0,0,4,0,0,0,144,255,255,255,10,0,0,0,4,0,0,0,8,0,0,0,111,117,116,112,117,116,95,48,0,0,0,0,1,0,0,0,4,0,0,0,98,253,255,255,4,0,0,0,12,0,0,0,107,101,114,97,115,95,116,101,110,115,111,114,0,0,0,0,2,0,0,0,52,0,0,0,4,0,0,0,220,255,255,255,13,0,0,0,4,0,0,0,19,0,0,0,67,79,78,86,69,82,83,73,79,78,95,77,69,84,65,68,65,84,65,0,8,0,12,0,8,0,4,0,8,0,0,0,12,0,0,0,4,0,0,0,19,0,0,0,109,105,110,95,114,117,110,116,105,109,101,95,118,101,114,115,105,111,110,0,14,0,0,0,72,2,0,0,64,2,0,0,32,2,0,0,136,1,0,0,116,1,0,0,84,1,0,0,36,1,0,0,180,0,0,0,172,0,0,0,164,0,0,0,156,0,0,0,148,0,0,0,116,0,0,0,4,0,0,0,22,254,255,255,4,0,0,0,96,0,0,0,12,0,0,0,8,0,14,0,8,0,4,0,8,0,0,0,16,0,0,0,40,0,0,0,0,0,6,0,8,0,4,0,6,0,0,0,4,0,0,0,1,0,0,0,234,3,0,0,12,0,24,0,20,0,16,0,12,0,4,0,12,0,0,0,244,93,111,145,79,138,185,11,2,0,0,0,2,0,0,0,4,0,0,0,6,0,0,0,50,46,49,57,46,48,0,0,130,254,255,255,4,0,0,0,16,0,0,0,49,46,49,52,46,48,0,0,0,0,0,0,0,0,0,0,0,249,255,255,4,249,255,255,8,249,255,255,12,249,255,255,174,254,255,255,4,0,0,0,96,0,0,0,68,72,87,189,161,48,246,189,1,197,16,188,187,46,60,63,126,198,229,190,32,157,147,190,76,245,40,190,200,181,228,190,100,192,193,190,55,25,214,189,204,2,156,62,243,57,177,188,64,96,204,60,45,95,153,190,204,49,164,190,227,44,202,189,82,200,39,62,206,127,39,191,0,136,130,190,0,11,29,63,64,28,226,190,93,76,229,62,59,124,137,63,73,63,73,187,26,255,255,255,4,0,0,0,32,0,0,0,158,230,45,189,0,0,0,0,0,0,0,0,132,17,104,62,0,0,0,0,142,91,162,189,88,30,201,189,39,169,19,63,70,255,255,255,4,0,0,0,16,0,0,0,117,235,199,62,0,0,0,0,197,185,199,190,63,106,48,189,98,255,255,255,4,0,0,0,4,0,0,0,163,62,99,190,114,255,255,255,4,0,0,0,128,0,0,0,136,241,203,190,141,96,28,63,82,218,167,62,140,233,168,62,157,181,26,63,144,79,236,189,69,202,239,190,82,129,143,63,204,87,39,190,32,200,233,60,104,77,52,62,150,29,139,190,182,20,150,62,146,140,213,62,105,187,146,190,92,219,62,190,73,19,108,189,88,61,171,189,194,201,51,191,204,249,22,190,3,163,42,63,172,114,16,190,51,222,44,191,237,54,187,62,231,40,20,63,3,3,192,190,91,152,26,191,239,227,237,62,221,184,28,63,0,215,123,59,214,116,210,62,2,92,42,191,0,0,6,0,8,0,4,0,6,0,0,0,4,0,0,0,16,0,0,0,113,137,131,191,0,41,85,189,222,38,182,62,163,85,132,191,132,250,255,255,136,250,255,255,15,0,0,0,77,76,73,82,32,67,111,110,118,101,114,116,101,100,46,0,1,0,0,0,20,0,0,0,0,0,14,0,24,0,20,0,16,0,12,0,8,0,4,0,14,0,0,0,20,0,0,0,28,0,0,0,8,1,0,0,12,1,0,0,16,1,0,0,4,0,0,0,109,97,105,110,0,0,0,0,4,0,0,0,176,0,0,0,104,0,0,0,52,0,0,0,16,0,0,0,0,0,10,0,16,0,12,0,8,0,4,0,10,0,0,0,12,0,0,0,16,0,0,0,1,0,0,0,1,0,0,0,10,0,0,0,1,0,0,0,9,0,0,0,154,255,255,255,16,0,0,0,0,0,0,8,12,0,0,0,16,0,0,0,48,251,255,255,1,0,0,0,9,0,0,0,3,0,0,0,8,0,0,0,1,0,0,0,3,0,0,0,202,255,255,255,16,0,0,0,0,0,0,8,16,0,0,0,20,0,0,0,186,255,255,255,0,0,0,1,1,0,0,0,8,0,0,0,3,0,0,0,7,0,0,0,2,0,0,0,4,0,0,0,0,0,14,0,22,0,0,0,16,0,12,0,11,0,4,0,14,0,0,0,24,0,0,0,0,0,0,8,24,0,0,0,28,0,0,0,0,0,6,0,8,0,7,0,6,0,0,0,0,0,0,1,1,0,0,0,7,0,0,0,3,0,0,0,0,0,0,0,6,0,0,0,5,0,0,0,1,0,0,0,10,0,0,0,1,0,0,0,0,0,0,0,11,0,0,0,248,3,0,0,160,3,0,0,72,3,0,0,12,3,0,0,176,2,0,0,88,2,0,0,12,2,0,0,120,1,0,0,220,0,0,0,96,0,0,0,4,0,0,0,74,252,255,255,0,0,0,1,20,0,0,0,28,0,0,0,28,0,0,0,11,0,0,0,52,0,0,0,2,0,0,0,255,255,255,255,1,0,0,0,52,252,255,255,27,0,0,0,83,116,97,116,101,102,117,108,80,97,114,116,105,116,105,111,110,101,100,67,97,108,108,95,49,58,48,0,2,0,0,0,1,0,0,0,1,0,0,0,162,252,255,255,0,0,0,1,20,0,0,0,28,0,0,0,28,0,0,0,10,0,0,0,84,0,0,0,2,0,0,0,255,255,255,255,1,0,0,0,140,252,255,255,56,0,0,0,115,101,113,117,101,110,116,105,97,108,95,49,47,100,101,110,115,101,95,50,95,49,47,77,97,116,77,117,108,59,115,101,113,117,101,110,116,105,97,108,95,49,47,100,101,110,115,101,95,50,95,49,47,65,100,100,0,0,0,0,2,0,0,0,1,0,0,0,1,0,0,0,26,253,255,255,0,0,0,1,20,0,0,0,28,0,0,0,28,0,0,0,9,0,0,0,116,0,0,0,2,0,0,0,255,255,255,255,4,0,0,0,4,253,255,255,88,0,0,0,115,101,113,117,101,110,116,105,97,108,95,49,47,100,101,110,115,101,95,49,95,50,47,77,97,116,77,117,108,59,115,101,113,117,101,110,116,105,97,108,95,49,47,100,101,110,115,101,95,49,95,50,47,82,101,108,117,59,115,101,113,117,101,110,116,105,97,108,95,49,47,100,101,110,115,101,95,49,95,50,47,66,105,97,115,65,100,100,0,0,0,0,2,0,0,0,1,0,0,0,4,0,0,0,178,253,255,255,0,0,0,1,20,0,0,0,28,0,0,0,28,0,0,0,8,0,0,0,108,0,0,0,2,0,0,0,255,255,255,255,8,0,0,0,156,253,255,255,82,0,0,0,115,101,113,117,101,110,116,105,97,108,95,49,47,100,101,110,115,101,95,49,47,77,97,116,77,117,108,59,115,101,113,117,101,110,116,105,97,108,95,49,47,100,101,110,115,101,95,49,47,82,101,108,117,59,115,101,113,117,101,110,116,105,97,108,95,49,47,100,101,110,115,101,95,49,47,66,105,97,115,65,100,100,0,0,2,0,0,0,1,0,0,0,8,0,0,0,150,254,255,255,0,0,0,1,16,0,0,0,16,0,0,0,7,0,0,0,40,0,0,0,28,254,255,255,27,0,0,0,115,101,113,117,101,110,116,105,97,108,95,49,47,100,101,110,115,101,95,49,47,77,97,116,77,117,108,0,2,0,0,0,8,0,0,0,3,0,0,0,222,254,255,255,0,0,0,1,16,0,0,0,16,0,0,0,6,0,0,0,56,0,0,0,100,254,255,255,43,0,0,0,115,101,113,117,101,110,116,105,97,108,95,49,47,100,101,110,115,101,95,49,47,66,105,97,115,65,100,100,47,82,101,97,100,86,97,114,105,97,98,108,101,79,112,0,1,0,0,0,8,0,0,0,50,255,255,255,0,0,0,1,16,0,0,0,16,0,0,0,5,0,0,0,60,0,0,0,184,254,255,255,45,0,0,0,115,101,113,117,101,110,116,105,97,108,95,49,47,100,101,110,115,101,95,49,95,50,47,66,105,97,115,65,100,100,47,82,101,97,100,86,97,114,105,97,98,108,101,79,112,0,0,0,1,0,0,0,4,0,0,0,138,255,255,255,0,0,0,1,16,0,0,0,16,0,0,0,4,0,0,0,28,0,0,0,16,255,255,255,15,0,0,0,97,114,105,116,104,46,99,111,110,115,116,97,110,116,50,0,1,0,0,0,1,0,0,0,194,255,255,255,0,0,0,1,16,0,0,0,16,0,0,0,3,0,0,0,28,0,0,0,72,255,255,255,15,0,0,0,97,114,105,116,104,46,99,111,110,115,116,97,110,116,49,0,2,0,0,0,4,0,0,0,8,0,0,0,0,0,22,0,24,0,20,0,0,0,16,0,12,0,8,0,0,0,0,0,0,0,7,0,22,0,0,0,0,0,0,1,16,0,0,0,16,0,0,0,2,0,0,0,28,0,0,0,156,255,255,255,14,0,0,0,97,114,105,116,104,46,99,111,110,115,116,97,110,116,0,0,2,0,0,0,1,0,0,0,4,0,0,0,0,0,22,0,28,0,24,0,0,0,20,0,16,0,12,0,0,0,0,0,8,0,7,0,22,0,0,0,0,0,0,1,20,0,0,0,32,0,0,0,32,0,0,0,1,0,0,0,60,0,0,0,2,0,0,0,255,255,255,255,3,0,0,0,4,0,4,0,4,0,0,0,30,0,0,0,115,101,114,118,105,110,103,95,100,101,102,97,117,108,116,95,107,101,114,97,115,95,116,101,110,115,111,114,58,48,0,0,2,0,0,0,1,0,0,0,3,0,0,0,2,0,0,0,32,0,0,0,4,0,0,0,244,255,255,255,14,0,0,0,0,0,0,14,12,0,12,0,11,0,0,0,0,0,4,0,12,0,0,0,9,0,0,0,0,0,0,9};
const int model_tflite_len = 2360;